// Automatically generated header file
// Date: 2026-06-24 06:01:51.326538
// Quantized model exported from octav_CNN_Olivetti_Aug_BitMnist_4bitsym_width96_64_0_epochs100.pth
// Generated by exportquant.py

#include <stdint.h>

#ifndef BITNETMCU_MODEL_H
#define BITNETMCU_MODEL_H

// Model class name as defined in models.py
#define MODEL_FC_Olivetti

// Number of layers
#define NUM_LAYERS 8

// Maximum number of activations per layer
#define MAX_N_ACTIVATIONS 256

// Layer: L2 (Convolutional)
#define L2_active
#define L2_type BitConv2d
#define L2_in_channels 1
#define L2_out_channels 64
#define L2_incoming_x 16
#define L2_incoming_y 16
#define L2_outgoing_x 14
#define L2_outgoing_y 14
#define L2_kernel_size 3
#define L2_stride 1
#define L2_padding 0
#define L2_groups 1
#define L2_bitperweight 8
const int8_t L2_weights[] = {
	-70,-20,-30,41,21,-4,-37,-10,-50,-9,-47,54,-47,84,45,26,
	30,21,-5,-68,-7,18,-15,66,97,-19,74,64,46,82,15,-45,
	-73,-33,-7,55,87,-64,-52,-90,-17,76,22,76,-49,49,-57,-49,
	-35,-42,-2,79,18,-32,48,17,77,-3,39,2,38,27,-24,74,
	-62,25,60,-8,56,-22,-18,102,59,-35,-20,-12,-34,-16,30,-31,
	-47,-55,56,-28,-86,-33,-92,-97,33,-4,-67,-30,58,56,-90,-78,
	51,99,-16,43,-98,-35,-67,-77,-43,24,42,17,-8,54,-7,12,
	92,85,-45,91,37,-15,-18,18,69,34,-45,-63,-31,-10,-4,-77,
	82,-35,-44,-13,-8,81,-64,-78,-15,-61,-25,59,-39,-30,63,4,
	-9,-21,-31,-68,-81,-11,-63,-72,-88,66,-70,95,-69,58,12,-34,
	48,-41,58,127,111,47,-42,-56,57,-37,11,12,74,-14,-59,-71,
	-108,-7,-23,70,20,50,3,-26,-29,29,38,84,-77,40,17,-23,
	-70,-17,-100,0,-58,-126,5,-43,30,2,98,64,60,-76,-83,39,
	24,14,-43,-39,-32,51,24,-55,52,78,-3,66,-51,-66,-37,58,
	-43,-41,8,-46,13,5,17,108,12,-7,-36,40,20,44,102,127,
	-54,57,81,-22,9,2,88,24,-40,61,53,-22,-66,13,3,-57,
	-97,-75,-77,5,-77,42,72,73,1,-87,-11,-58,37,-63,57,-2,
	-38,-67,2,-94,71,-48,-50,-55,80,73,-15,-47,-32,4,-75,-30,
	-28,0,6,72,87,54,64,65,-12,-26,-13,8,-53,5,-101,-22,
	17,-41,23,51,68,-23,0,-13,20,-19,-20,-16,31,-22,51,67,
	-31,29,-85,-86,77,-6,-25,56,-17,-53,-62,-3,-32,73,96,34,
	-55,-38,-85,65,-36,-87,93,69,-17,39,49,49,77,-4,8,8,
	13,88,-15,35,20,48,58,32,99,47,-29,33,-22,-11,36,7,
	-53,25,85,-65,-12,82,17,-96,-20,-75,-14,99,21,106,107,-38,
	-60,87,-13,-31,-13,-27,-12,-89,-17,66,-42,5,54,-20,-12,-15,
	65,83,12,16,-8,-56,-88,56,-28,-51,49,73,2,62,76,35,
	-53,-76,-72,-67,63,-41,28,-9,-13,-62,-36,2,-4,-49,43,1,
	97,60,67,73,-36,104,69,-62,-1,60,64,66,-14,60,90,41,
	-21,70,-103,-81,-27,-61,43,23,-47,18,85,-82,-95,-42,-71,-89,
	4,5,-64,-76,38,-7,-25,35,104,5,-54,-70,82,-10,70,16,
	49,-87,-59,38,-6,68,10,33,97,5,-74,4,22,35,20,80,
	53,28,-40,-16,-26,-3,-71,14,-4,0,-71,-15,-103,1,-94,2,
	-17,53,79,53,31,-38,-9,97,-85,36,-94,-78,-22,18,-49,-6,
	44,-73,-18,29,-36,-9,-28,-20,96,67,71,6,26,-83,61,-18,
	50,78,85,83,-43,-59,31,0,53,-5,-83,73,47,50,51,17,
	55,69,3,28,27,92,22,-17,97,-35,-51,-2,93,102,38,26,
};

// Layer: L4 (Convolutional)
#define L4_active
#define L4_type BitConv2d
#define L4_in_channels 64
#define L4_out_channels 64
#define L4_incoming_x 14
#define L4_incoming_y 14
#define L4_outgoing_x 12
#define L4_outgoing_y 12
#define L4_kernel_size 3
#define L4_stride 1
#define L4_padding 0
#define L4_groups 64
#define L4_bitperweight 8
const int8_t L4_weights[] = {
	-23,-33,8,-65,-53,41,-41,75,23,65,-71,11,2,39,32,91,
	11,56,-13,34,77,-85,-69,-26,76,-88,-68,7,-65,-86,18,30,
	76,-77,-91,-6,-3,-41,27,-54,31,-16,-27,-29,67,-105,-87,-76,
	-41,32,47,30,17,13,70,31,30,78,11,26,-29,35,69,43,
	22,12,-107,-30,63,-58,67,-99,23,39,33,-70,48,37,-49,42,
	42,-46,-72,20,1,-20,52,-20,-71,-14,-74,-76,37,9,103,71,
	21,-39,87,50,52,17,54,14,61,45,36,77,-36,14,-29,30,
	6,-56,-15,50,-75,51,23,56,-91,-1,-44,86,4,13,29,64,
	62,72,-37,78,46,38,2,-62,-30,15,43,15,-61,-72,72,52,
	76,-77,-79,77,-59,-38,26,-49,-71,-8,-38,-4,-8,-20,45,-30,
	70,23,-106,-78,-105,-34,89,-8,84,2,30,-128,-54,-45,7,87,
	14,-66,-74,-26,-15,22,0,-1,9,62,23,-8,62,-67,6,105,
	-61,20,95,-73,7,41,-52,38,80,-47,-56,-29,38,31,-103,-99,
	-22,29,21,28,8,65,40,42,-45,44,66,33,1,-36,16,91,
	60,-50,53,-5,66,-27,-52,-61,-27,-61,-33,-64,-37,0,-26,-52,
	80,-33,-74,-28,2,64,-81,58,-66,78,27,-57,-63,-50,-51,78,
	57,59,-54,-74,-37,41,16,-46,77,-30,40,25,-39,11,-3,96,
	77,28,71,-17,-69,62,20,-79,84,69,-44,-37,32,79,8,12,
	9,68,1,-80,-67,88,88,65,-56,-11,-63,7,7,-59,-45,-80,
	49,80,21,-87,-47,-11,76,-99,-4,49,-46,21,66,63,46,-19,
	62,40,33,88,-84,0,25,11,-21,44,28,-26,52,-106,103,-71,
	-45,-30,-30,68,69,-10,8,47,-8,59,-67,66,64,33,21,6,
	-66,-1,70,20,-65,27,20,-60,-64,37,-101,-38,71,20,30,16,
	-103,-20,63,-79,-65,74,53,27,-16,4,-65,38,65,-97,-79,-32,
	1,-47,-61,-58,-65,6,59,73,27,79,101,-48,57,-59,-38,82,
	-9,28,55,-41,65,-1,-23,13,-75,60,-21,-100,75,-14,50,-4,
	-55,69,-90,-8,84,-28,-68,2,1,-75,58,30,11,74,17,-60,
	-67,-46,-42,-37,-70,-9,69,-26,-82,56,72,29,-66,-17,57,69,
	-21,-44,-3,15,-61,-123,-51,59,-87,55,0,-2,18,-68,27,38,
	29,-91,39,-57,-4,-32,30,17,81,-2,-105,59,-80,0,30,-76,
	41,11,81,-33,21,31,35,-63,6,56,110,120,-69,71,28,-43,
	71,58,-81,-83,23,-93,-1,-31,2,27,17,53,-41,-98,-19,-87,
	34,64,24,-83,56,47,-52,-75,32,-57,-78,-65,-14,10,77,51,
	64,-80,-96,-39,39,-45,22,-36,84,-62,61,-114,-58,5,-3,37,
	51,46,-53,-99,6,-35,23,34,9,-21,84,47,34,32,15,-5,
	73,-35,45,15,-59,-16,-24,81,78,-59,-96,-53,24,51,-69,-3,
};

#define L6_active
#define L6_type MaxPool2d
#define L6_pool_size 2
#define L6_incoming_x 12
#define L6_incoming_y 12
#define L6_outgoing_x 6
#define L6_outgoing_y 6

// Layer: L7 (Convolutional)
#define L7_active
#define L7_type BitConv2d
#define L7_in_channels 64
#define L7_out_channels 64
#define L7_incoming_x 6
#define L7_incoming_y 6
#define L7_outgoing_x 4
#define L7_outgoing_y 4
#define L7_kernel_size 3
#define L7_stride 1
#define L7_padding 0
#define L7_groups 64
#define L7_bitperweight 8
const int8_t L7_weights[] = {
	-7,62,-59,87,-60,29,-52,66,59,63,70,-64,-26,-24,77,-81,
	-30,-85,-22,-9,60,91,-47,-43,-8,-77,-47,54,91,27,74,71,
	-80,9,77,69,31,36,-90,-76,63,58,-30,68,-86,41,-54,53,
	-88,-48,-91,91,81,-44,103,43,-40,-63,-59,13,25,-69,33,-8,
	-71,-36,-22,-66,-57,4,85,-36,-60,-16,12,-11,90,39,29,72,
	-82,-76,-4,101,-79,-76,25,29,102,-2,17,-34,-68,-24,-27,-65,
	-45,-3,106,-71,59,-23,-70,84,-37,-102,-19,70,-71,54,24,16,
	91,94,19,-21,58,-31,78,61,77,68,-53,-47,-51,5,-64,40,
	8,-91,92,32,12,4,-7,48,75,21,-13,9,-91,10,20,-80,
	-29,23,79,-29,-35,90,14,66,46,91,-37,-4,-49,78,-43,33,
	-20,-83,-33,10,3,-102,-20,-53,66,41,-56,62,75,26,54,18,
	-41,26,-25,-31,-87,-45,67,60,5,31,-55,-33,24,-103,30,16,
	-106,-53,18,-22,-21,-52,80,-99,-99,-2,-89,-40,5,-59,37,65,
	41,48,-78,36,17,38,-24,-63,-21,-44,-21,-65,95,9,-66,32,
	21,-21,-104,54,85,-55,-42,127,-10,-8,108,30,7,4,46,-104,
	-99,21,-28,-57,62,69,-32,39,-50,-73,-65,36,-19,-56,-2,75,
	94,88,3,53,-8,-54,57,53,-87,-95,51,-3,-19,67,47,-119,
	-53,-18,-58,-24,27,75,-6,-54,-69,-82,27,-53,-52,51,106,-58,
	38,79,-93,30,25,-100,-46,6,-37,93,62,-5,-12,-8,-110,60,
	-27,-5,98,-69,54,15,43,78,-24,-1,12,-71,72,33,-12,-20,
	-61,31,-28,-47,42,40,-42,74,-23,-19,54,-90,28,38,-42,-3,
	70,-103,10,-16,8,-17,16,-32,-17,69,-86,-3,42,18,-9,51,
	-72,-28,39,66,34,107,-52,23,35,33,61,14,71,40,34,63,
	28,-9,-64,0,30,-43,-53,-22,-63,73,104,-26,108,-37,-42,103,
	42,11,-12,52,76,-48,-23,-31,7,-26,18,-43,17,-17,73,86,
	-24,52,-5,4,-73,-64,49,41,-44,92,23,47,-24,51,-58,-86,
	48,42,24,-42,-50,-37,102,7,-71,81,2,-50,67,-7,-9,-69,
	-7,93,85,15,127,49,-36,-47,-51,-61,-16,-56,16,-27,-12,53,
	20,46,-11,-36,-87,101,47,-5,91,34,41,58,67,88,112,22,
	-14,-47,1,8,18,-106,-72,-20,-21,-79,96,43,-52,49,-27,-1,
	-19,-29,-73,33,104,8,-74,-45,30,69,44,-30,-19,-59,-19,-93,
	52,60,-55,-3,14,13,82,-35,-45,59,-26,-88,64,74,-89,-102,
	-86,88,-79,-93,36,76,-24,-71,-39,-50,39,62,97,15,73,-26,
	42,-6,21,-58,102,10,27,40,-72,-79,-79,92,-32,32,-104,-14,
	50,83,60,42,-104,-28,62,56,-29,28,-13,-128,-68,2,-77,18,
	-79,-63,-88,-11,91,85,-27,84,-58,4,-86,-68,-57,-47,-37,75,
};

#define L9_active
#define L9_type MaxPool2d
#define L9_pool_size 2
#define L9_incoming_x 4
#define L9_incoming_y 4
#define L9_outgoing_x 2
#define L9_outgoing_y 2

// Layer: L11
// QuantType: 2bitsym
#define L11_active
#define L11_bitperweight 2 
#define L11_incoming_weights 256
#define L11_outgoing_weights 96
const uint32_t L11_weights[] = {
	0x195a02f9,0x1973ca72,0x0b490adc,0x1ac9039b,0x52ab99f9,0xc852df28,0xa2bf0460,0x0f2e33c0,
	0xcf8fce08,0xa8b3a226,0xb84c4452,0x4a809c02,0xa182e258,0xc0a2bb9a,0xcfc04629,0x9e9030ef,
	0x1cff39a1,0x5218ffb7,0x100e629c,0xea565aa8,0x53df11c5,0x7e515aa6,0x4b0b3806,0xaf08a820,
	0xee0ecf52,0x9bfaa2e8,0x0a266e05,0xfada480a,0x3705ff2b,0x1865f8a2,0x4fce6bbb,0xe889266a,
	0x20fe4e28,0x19d30aed,0xa4e1ee20,0x88410089,0xa4398b5a,0x32ca0eb0,0xd3b084ea,0xc220b36e,
	0xb235b281,0x2ece6534,0xa862653d,0xe3356934,0x28338a05,0x76a24222,0x462c11ac,0xc32f0887,
	0xcb02acf8,0x6c18e436,0xa8564126,0xea128e01,0x440f15e8,0x8f685488,0x646c8f61,0x44002bca,
	0x9c50c842,0x1b0ccda2,0x00ca3795,0x8b88208a,0x162cbe66,0xd2021b02,0x4eeea298,0x20224c08,
	0x488a3a64,0x7a50282b,0x98c42624,0xee19d12c,0xb8ef1e91,0x3f2ca412,0xe122aaca,0x22980398,
	0x6391cf08,0xa00af0e6,0xff464549,0xf2fcb912,0x81884504,0x1314cb02,0xaaaaa8ac,0x8a0f2003,
	0xb022231e,0xeaeee801,0x005aa220,0x3028e8eb,0x01b8b74e,0xd1ef3920,0xe8a573ce,0x333a551d,
	0x74beb429,0x20445808,0x3890efe0,0x418f30a2,0xf3412510,0x708eeacf,0xf9084b1b,0xa3c84262,
	0xb8c0ee28,0x030babeb,0x0aae22aa,0x0ec3bfb2,0xb32b2aa8,0xb22a3e0a,0x8082032b,0x0aaf802a,
	0x28fec0be,0xcab883ac,0x0aafe3c0,0x8a322abc,0xccaacab0,0xa4b0aacc,0x68af838a,0xcaaaaeee,
	0xca53be29,0xc921f158,0x1c0fdd9a,0x819ec120,0x982345cf,0x4a48b4ac,0xcb7394cb,0x9e9872f0,
	0x1818a87e,0x6e7baa0b,0xaeedbf62,0x4add8909,0x63400e83,0x76eb9b0e,0x84236e86,0xab522a12,
	0xc7e18c04,0x0c009eee,0x2050eb63,0x522b7ee0,0x9489e64a,0x03ff8832,0x4e151949,0x848032ab,
	0x28ba15ef,0xa2db4e68,0x05b0e9ec,0xb8461333,0xe3cc809d,0xfb08e104,0xb2001800,0x45ba3ca0,
	0x02bb2a3f,0x8bfa6408,0x4525f746,0xed0c215f,0x85babf0f,0xb0a860b2,0x02322b0b,0xef8e9998,
	0x04386f06,0x25804580,0xaf43ce48,0x32a20016,0x6e04c802,0x77f3effd,0x032e98af,0xf3ad2043,
	0xb41400be,0xab71b1a1,0xa72d2486,0xf02162b2,0x87e3dae0,0x88a5f783,0xb279040a,0x6f190002,
	0x8a4020ea,0x220bc2a7,0xca9e8335,0x5ac8cdb8,0x5559678e,0xd8a21424,0x99003fa1,0x1f115249,
	0xc2822d71,0x2b092415,0xefa7ed2e,0xb0a31a81,0x8b23e9a7,0xeab9b208,0x2a39010c,0x559a2ebf,
	0x2e558baf,0x7a5e0e2b,0x2ede8025,0x20802c05,0x50006b44,0xd52f1592,0x8d277bbd,0x40250a7e,
	0xca20a8c3,0x808d08d7,0xce45110c,0xa2abd8e8,0xdcce5df7,0x0466379d,0xa8f40a4d,0x551589f9,
	0x0a05011d,0x90efa6a2,0xe2148c00,0x61cd0caa,0xf4fe2609,0x13029204,0x85e2ed6d,0x8988ea42,
	0x8af82db0,0x82a95ee8,0xcad0068e,0x49ff7601,0x4ef229e9,0x58e0c9aa,0x0dfa5180,0xb4b1ea44,
	0xefa03031,0xbebf8260,0x55c805a8,0xc004a2ad,0xe2289f28,0x01a6e5a5,0x6c2b3108,0x54ca9c35,
	0x51ba0d00,0x86c4affe,0x0094ea82,0xb48a60e8,0xdc11f680,0xfce8ffb4,0xf01523eb,0x90a7ab2c,
	0xffe5a2f0,0x38ce7106,0x62610fee,0xea40fa29,0xfab7450f,0xf4108421,0x85fe59c4,0xe0fef5fb,
	0x02aa2aaa,0x2a8208c8,0x2a889082,0x2390b0aa,0x0a828aa0,0x2a90692a,0x2b920063,0x9ae06e02,
	0x23883228,0x8a703808,0x3258e0aa,0x2238a88b,0xe6a32782,0x3a4b9ccf,0x8ea7ae08,0x283b3807,
	0xdc020882,0x408954ee,0x14aaaa56,0x0ea0f5a0,0xc9995a24,0xe0e933aa,0x8b02d1cf,0x8c14a00e,
	0x6199413b,0x80be5726,0xc05ba2f8,0xa34159e6,0xf5f88cfa,0x93cbc0e9,0x7621eacc,0x3b82fb82,
	0x102c01f6,0x42ba4ffa,0x803460e8,0x2822ce5e,0x3f25f4f8,0x414eb92a,0x16049924,0xca2aab66,
	0x0d8aa9df,0x01a0cecc,0x007d0543,0xca2a064f,0x1eeec9ae,0x90e09aa9,0x743f2402,0x800cbc01,
	0xa0610b2e,0xb02b0496,0x8bc876c6,0x051a86c4,0xc56005ac,0x2286ab01,0xefd19134,0x0a612f03,
	0x8a04c022,0x8c8fcaaf,0x15d1f5f9,0x18db1ab7,0x8828ffec,0x1fa02f4a,0x9ee0eecb,0x0bb0ac21,
	0xb32e5728,0xd6ba9ca3,0xc2dd4007,0x40a522a4,0x91747aca,0x1884f4a4,0xe86728a4,0xe8409204,
	0xa0301405,0xe8fae402,0x6284a2c0,0x461a9cb0,0xf832e6de,0xfa42b209,0xe490e958,0x4f8ae809,
	0xbf855f0e,0xe8eae301,0xb8d065ea,0x8833a0b8,0xba81e5a8,0xa0883034,0x8262bd01,0x35a0720e,
	0x8e0f0a11,0xc119cc8c,0x00c4c031,0x86320e20,0x6895b281,0x1f301780,0xc3d0b352,0x28b158ae,
	0x02aab30a,0xcaa882ce,0x0aaa2804,0xe8622b3a,0xa8ba000e,0x38820ffa,0xa23c3ae2,0x30ea02bc,
	0x80c3af4a,0xfab0a0ca,0xaa2a4422,0xa0aaaec2,0x0e0ca203,0xfbe812e2,0x010a7b2b,0xf0fb0e2a,
	0x68a08e2b,0x6e0209aa,0x3aad2a3c,0x1bac83e0,0x0b2a1831,0xb2021ee2,0x2a198aaa,0xa8aa80a9,
	0x0282cab4,0xabfa088e,0xac22fbb2,0xc2afc2e6,0x3828252a,0x20a820ac,0xa3602923,0x88000289,
	0xc20ec0b8,0xc8aaa842,0xaa0d002b,0x2e0ff2b2,0x8b88c22a,0x2fab80b8,0x8c022088,0xc8cb3c3c,
	0xacc28cb3,0x204a80a2,0x2a8a38a1,0x08a22886,0xc3ba3e38,0x2ae82b03,0x2ab340ac,0xa86a0ac4,
	0xaa32e0aa,0x2fc28082,0xa8aab03a,0x2ac2b20a,0xa22a8afa,0x2a828a2a,0xc2af2ea2,0x8a7ab222,
	0x88b2280a,0xfca28e88,0xc8a20e28,0x2ea88a20,0x3b282232,0x850a0028,0xb088ac3a,0x02ac2822,
	0xa851a83b,0xb824e2f9,0x88bf659c,0xfa0a8e00,0x3f1249b3,0x66221800,0x122c7385,0x88385a5a,
	0xaaaa2c99,0x5545de9c,0x8b6bac13,0x48a073cc,0x2805a2ab,0x8dff50ae,0x14acaf04,0x08154426,
	0x64ce2984,0x0d8affca,0x4008af8e,0x2b800828,0x231191b1,0x24aa1ba8,0x01d1f342,0x2a78264b,
	0xcf6926ae,0xb282faff,0x20ea0800,0xbe042f00,0xbedb45ab,0x1a2a28a0,0x83d83b2f,0x27a0e008,
	0xeebe8a38,0xb33b20c2,0xb038a8bb,0x2efbaae8,0xa0a0a203,0xab8b28a2,0x3c880328,0xc3fbb820,
	0x2aaffa28,0x0acaaba3,0xcf2322a7,0x8c0eaf8a,0x3382808a,0xabb28bbf,0x2a3b0c02,0xc82207ae,
	0x40ff8afa,0x6284bb74,0x4622d8b7,0xbf304501,0xff11c63a,0xf0e3f1aa,0xf3c5b3fb,0xebee0b8f,
	0xbf0045a8,0xb5d036b3,0x14bc13f9,0xbaa061b5,0xabe3553a,0x76258229,0xb7fea0e2,0xf3bbe202,
	0xca6fe54d,0x290b5628,0x8f4298bc,0x3ba2dd9b,0x26b1edd2,0x8afc2b0e,0xad6c7389,0x019088f8,
	0x3fa40ea4,0x420bd9a1,0x72c8134a,0x9fb6ac16,0x8389ac64,0xb1ec7fcf,0xeb196a69,0x80078558,
	0xef072e55,0x284244fb,0x2c42ac81,0xc08aab88,0xd42b232a,0x02499e09,0x1c8a398e,0x052ef2b8,
	0x86e880ec,0x02094844,0x81f28f82,0x2e015ac0,0x8aff2c81,0xbf988e12,0xcc05142c,0xa229fbeb,
	0x0ca0171a,0x003368fd,0x0428098b,0x00a2a80a,0x8891eb4f,0x26107aae,0x651882e4,0xfea25299,
	0x65fa212e,0x8514670e,0x154e222b,0x8e426a3b,0x04e906f8,0xbfef5aad,0x46659b68,0xae45c305,
	0xe30ec2e0,0xe0a02d30,0x3201ba3a,0xea882a33,0xeebf21c2,0x32ae33ea,0xb9f0a182,0x02022292,
	0xa28fae69,0x23aa0820,0xeb8632a0,0xc30e0202,0x098820e9,0xac2eac3f,0x064aaff0,0xa3ebfbb0,
	0x20e88ba8,0x08944ef8,0x64fea120,0x44e4b6bb,0x81518f59,0x80f0c1fa,0x761215e2,0xcf22871f,
	0x024104b8,0x2080047b,0x040aaaec,0xf03440b5,0x00f004aa,0x8aca4601,0x718418e6,0x8afff825,
	0x38a8b0a2,0x2220ef8e,0xfa322600,0x60aa08c3,0xa882e222,0xceac800a,0x0f6037cc,0xc02aeeea,
	0xc1cfe23a,0x730e834b,0xde810b08,0x2288dc80,0x392808eb,0x8088a88f,0xaa98a20a,0x823802ae,
	0x5a1543b8,0x23a3487b,0x42dd0264,0x9ec5064a,0x3b51ae0a,0xe3229504,0x661fce66,0x2a13a089,
	0xf92203a7,0x98d1edae,0x482323cf,0x18b36b8e,0xddc18aea,0xdfea1fc1,0xeb2b8924,0xd84280ab,
	0x8ab3adae,0x002483da,0xbb650e0a,0xea1b828d,0x7e9f9559,0xe0545040,0x01eebc02,0x40a522a0,
	0x8e290e4f,0x3a136124,0xbe4c4901,0xace8a25b,0x441e411b,0x4464af46,0x184342e3,0x908e826b,
	0xa0eca0e2,0x50320dea,0xef2afa00,0x442e0b68,0xd8273484,0x09e78620,0x02b89a67,0x2a102a70,
	0x2803b2f2,0x7c2a4429,0xdda185d9,0x590e8a90,0xffb09fed,0x2282e593,0x4c4ff057,0x07a0eaa1,
	0x208b22fc,0xcea8eea4,0xaa021a8a,0xafa8a2ba,0xe08f8ce2,0xbf3222ee,0x2ab88c8c,0x883a02a2,
	0xa8e1a809,0x8ea8832b,0x2cc02802,0xe8c0082b,0x08cb03bb,0x28eb2282,0x23baaa8b,0x833b3028,
	0xa082eae8,0xe882a2a2,0xb80a24ba,0x088082ea,0x3bea000e,0x08b6828a,0xa4aa0a8e,0x8eaa8010,
	0x2cb630bb,0x2f8a0023,0x2a8000e8,0xae90bba2,0x2f629fc3,0x0b886b3a,0x8c822b80,0x0e3bbe9f,
	0x29acba28,0xa0e3c8d1,0x228d8a8a,0xac83d98b,0xb8293cbb,0x09a62eb0,0x0da30b01,0xe1191358,
	0x37a820a1,0x86c20620,0x06c22eaf,0x5105e7e0,0xe611e0bb,0xb0cd63f8,0x8a2ddb4d,0xa15ad1a1,
	0xa040e3ab,0x3bc814bb,0x1a7c0376,0xb4ba8bc2,0x8caaf711,0xe24e830c,0x8cd86122,0x9b0e0ba7,
	0xa422808c,0xed194f9c,0x2ac36402,0xa8afb32c,0x1c859e18,0xf5802d27,0x10a360ff,0xab0447e2,
	0x0beec038,0x80ce08a0,0x82bac2a0,0xe22a60c8,0x02cc1b0a,0x8bfa680b,0x02a88a2a,0xab2e1afb,
	0xa048882a,0x0206820e,0xfbba2faa,0xa2ba8a38,0x0faf92a0,0x08021a8f,0xbbf9caa2,0xa080c880,
	0xc08ba206,0xa2ab28e3,0x0a4afb24,0x478a2e08,0x4ba80701,0x1a06620e,0xddb31326,0x0aeceeb0,
	0x822e2522,0x8f9aa945,0x8f024e53,0x40ec2710,0x2ecc1d45,0xb002a143,0xb81880c0,0x601fb41d,
	0x60abea10,0xa8beafd0,0x1840c059,0x128b4248,0x50ae3b01,0x8a4c91ce,0x8ca2278c,0xafb424e8,
	0xffcea810,0x2ace67a4,0x456eab1d,0xfa52c028,0x73d5bf49,0x46eeb382,0x1ec65864,0x914d80c3,
	0x6030a383,0xb6acebb1,0xcc566024,0x2a43ca58,0x6e2a2b68,0x4958500e,0xc11f7a21,0x20035a15,
	0xc00ffa5c,0x105d22a1,0xa8446947,0xf32aea10,0xa22aa845,0xa9a00e0f,0xb62e40a3,0xf28c21aa,
	0x50a98244,0x50283fbe,0x24c905a2,0x4a054622,0xbb88a24e,0xc06fa8b0,0x74518c75,0xe6a3aa40,
	0xb9b6c28a,0x85852e22,0x657825a9,0xfe02913f,0x01238481,0xd2c09834,0x27e3912c,0xcba0af26,
	0xcef28222,0x30c0b810,0x210ba090,0x308b8abe,0xbb8b07c3,0xa3a8b83a,0xda96228e,0xcec80328,
	0x60b8c883,0x0a08e1a0,0xe800ccbf,0xaa838b0e,0xae21acca,0x00bf003a,0x82e8f00e,0xea0a203e,
	0xea822269,0x210c914d,0x222ef07e,0x26ae28c4,0x90f0345b,0x20ec2f3e,0x3fe6402e,0x440deda2,
	0x640440ea,0x8a2b6e49,0x54ce858d,0x928f82f0,0xcb046689,0x32ea3cb0,0xee2a1b2e,0x40a248c2,
	0x2b2209b2,0x32615bee,0x2c148608,0xa5fa7a30,0x02800db8,0xa7c89d58,0xa1aeb9a8,0x8509b886,
	0xcc18a511,0xaca8e4e2,0xfb154808,0x848ae826,0x01ec04a8,0x1990ea64,0xef903261,0x55ecaa11,
	0x2040ecbf,0x82011279,0xa53a830a,0xb82e2d08,0xbe12a73b,0x51001c33,0x50e4a80a,0x811198ae,
	0x00802a28,0x2e769b18,0xb2e86927,0x86870acf,0xf7a7b4a0,0x71e09aad,0x3b3273bf,0xf0164d82,
	0x42a228ef,0x62b7f39b,0x5584b78b,0xbf680515,0x2e2573ff,0x27fe8c0e,0xdaaeb7ae,0xff2accce,
	0xb7b2063f,0x48b933bf,0xa0f2035a,0xbc521925,0x373b148e,0x76c22ebc,0x51b36b8a,0x9f99bad6,
	0x100ee841,0x28effe3e,0xab0f6cd8,0x2fa2cc43,0xb30014f2,0x4b5a3ee8,0x9f820a25,0xffcab0b4,
	0x00ca6ea3,0xee5dddd8,0x2b7cbf03,0x95806209,0xaa5eeab3,0x1a488f8b,0x934bebf3,0x080144ac,
	0x29206e07,0x3689a4b7,0x00254477,0x87288caa,0x3288acd0,0x22aa8510,0x444eff95,0x0113949e,
	0xa5b02347,0x1955eccf,0x3ee4ef21,0x8abf3ad0,0x6c06808e,0x940acaa8,0xf3b2a4ef,0xa28761af,
	0x2c98bc82,0x8c006d3d,0x8056ce24,0x8ba89e0c,0x2207a384,0xaab03400,0x16968b07,0x833badf7,
	0x55ba66ff,0x02996105,0x8033ef37,0x663e7816,0x2c2a48f0,0xb020e92b,0xb66ea0cb,0xe268ab2a,
	0xc2a28e38,0xbc388260,0xe8b3a82a,0x0c022a22,0xba0b2aad,0x800082af,0x8a2a3c28,0x00028368,
	0x20f2e2aa,0xab0c92a2,0xfbb0b200,0xabb0e00e,0x388e8a09,0xae080b9b,0x80c02003,0x808aa08e,
	0x2b148e0a,0x3a41086b,0xa252898e,0xc228acac,0x5207c74e,0x049d310f,0xa4202280,0xd88c1920,
	0xaa8e640d,0x46256028,0xbc9e9b23,0x1b7cc2cc,0xb3c024d9,0xa7cab543,0x74140a20,0x2140731e,
	0x223b90b3,0x622606a2,0xbab3a432,0xca2e8650,0x20cbdd50,0x2925d91b,0x158cbf9c,0x2e8887a5,
	0x249cff45,0x0301b4a4,0xccd07b25,0x02a2b792,0xeca29cc8,0x6424bf2f,0x6a7a74ea,0x112b9821,
	0xeabb0d4e,0x62a8ee19,0xee2fce8d,0xa8128c27,0x7e4a9cac,0x2a896dce,0x9bbc52a2,0x1bbac4b6,
	0x0ee34de1,0xa2426f8e,0x8bad0b86,0x449dac20,0x6140fe23,0x204d8bae,0x226b2093,0x34206427,
	0x3a028c92,0x8c26ebdc,0x6201cc46,0x58e63715,0x40c0adfb,0x81499bac,0x737b0280,0x5545b2be,
	0xef1a2489,0x0b0f2123,0x44d2220a,0xed01afba,0xe81a7a28,0xa3da1081,0xc9a8b080,0x6da712a3,
	0x4b090465,0x83a34298,0xa488b568,0xc081a12f,0x33368ea4,0xc9bc39aa,0xb1719ac8,0x8f0e541a,
	0xf80d9325,0x08972e2a,0xab289fa3,0x25f8e9c9,0x0c80663e,0xc9a82722,0xa2a3e245,0x0132914e,
	0x2a08a0c2,0xe0880a91,0x0ab90422,0x2eb3333f,0x2aa0aa0c,0xa802e23a,0x2ee2abaa,0x0ab8ec8e,
	0x3e0a08a0,0x2a280888,0x0201aaaa,0xc0a0f20e,0xcaca0aea,0xaaca022a,0x08a38022,0x038ba088,
	0xa83f2a49,0x19284f22,0x19ad8fce,0x305410b2,0x5a0b1f85,0x14390de0,0x40e21532,0xaf0932b3,
	0x8c3f857e,0x013266eb,0xb0945842,0xff1619bf,0x64fafffd,0x9bf88130,0x62a1a869,0xeb88fb50,
	0x8a0c80a2,0x382ee3b1,0xf28698aa,0x0ce2cac3,0xacbca3ee,0x4889e3fa,0xc3eeb03e,0x02a82028,
	0xa8320206,0xe2322002,0x001aa0ce,0xea8cfe82,0x8e0c82ba,0x29ee82a3,0x3a3bae2c,0xaeaa0abc,
	0x3bd08b1c,0x3a808a19,0x2f608eef,0xc20fb308,0x0b3ccf52,0x128d2c2b,0xcd8b81e9,0x41a91209,
	0xba0a534d,0xa7ac3780,0x101d4100,0x22c2aab3,0x4318aa55,0xb6ac5b13,0x1f945b9b,0xfec810aa,
	0xb2a488ba,0xfb089126,0xf8242f04,0x4628b3b6,0xf561b322,0x32f09420,0x90997922,0xa5a51898,
	0x042441e2,0xca980dc0,0x1fe73ee9,0x8606b206,0x0455c22e,0x5031ca66,0x8d2c2caf,0xb0ac062c,
	0xab14490f,0xaf906531,0x20ce33aa,0x82c9c9fb,0xde035842,0x21e033a0,0x2a28f04e,0xac00092b,
	0x41780ac1,0x2e26096a,0x6c90c9fe,0x516abf31,0x06e34ee8,0x92ab65a4,0x7446f388,0x33010620,
	0x2488203b,0xa200f2a8,0xa08a0036,0xcc802a28,0x2c82bcb8,0x34ea3e8a,0x0e8828ba,0x2a2a9882,
	0x6209c336,0x00e20b3b,0x8ad4042e,0xbcef2c22,0x3e2aa7f8,0x4242a23c,0x0e3e0aae,0xfc38f890,
	0xf82b3eef,0x8ca46c88,0xb0ccd5ec,0xe10bb209,0x54e37abf,0x59851ccf,0x318c6208,0xa5754551,
	0xfffab914,0x3abbe620,0xe1e5a660,0xe285360e,0xef853029,0x37cafb2c,0xa2e87ae4,0x21051784,
	0x401084a4,0x7aae8d2b,0x62e128a8,0x2b010788,0x7aaaab41,0xf7ae0a02,0xa24eae8a,0x330f6286,
	0xac33cba7,0x1ac9ce0c,0x2afa8503,0xa82a2a6f,0x0db88b02,0xdc809921,0x6b0e8455,0x12221ca3,
	0x9d2a89a3,0xca33cd3d,0x9c0cebd0,0xea8c8e0c,0x3bc106ba,0x02445c82,0x4783b254,0x031bfb9e,
	0x08ca2c07,0x1c5ad489,0xae7e4857,0x0a8ab808,0xc4148d42,0x24eb9fbe,0xaf6e22b3,0x822b4ad2,
	0x2a602302,0x0ab980bc,0xe6cd24f4,0x4844a085,0xa667448e,0x85ffbb38,0xfc250708,0x30aa5516,
	0xa02ac839,0xa93b232e,0x44e830e2,0x2868caa8,0xa262f73a,0xcfabaa39,0xa291f89d,0x2f2458f8,
	0xaa2b280c,0xf8eebba0,0xb00a2ef0,0xc880c3e0,0xc22fa828,0x0e0487bb,0xf0b3c0a8,0x0bee2880,
	0x3838a820,0x8e06bb83,0xe036b023,0x23f2aaf8,0xcd32a80a,0x22eb4be2,0xea3affb0,0xefa2b880,
	0x5484e682,0x407bb092,0x8974326c,0xee4e24a8,0x0aeeda48,0xbe46922c,0xcb986b21,0x2f3a59e0,
	0xb0fa401f,0x16947fea,0xa06ff80f,0x601e675a,0x0a896a82,0x9b2bc20a,0x6eeb9b75,0x9e258b62,
	0x024001ae,0x62224021,0x2cff6098,0xc2e1aa39,0xbb227e28,0x2e42ae0a,0xba2c76e2,0x5b9a468a,
	0x0a57aa2a,0x2a7e8b98,0xae486544,0x5caa6a2d,0x61a43a42,0xde0b8048,0x122a049e,0x9ec48ec2,
	0x3e8f0d21,0x33ea8ff9,0xface1928,0x28022baf,0xb14104ea,0x25c53104,0xa9512f21,0xff0e2350,
	0x28ff8024,0x82d1f581,0x87852fb3,0x1105b280,0xafd8bcff,0x4944c86e,0xbf6ab320,0x2448f555,
	0x8f02a32b,0x80a20b0a,0x82204a2c,0x0aa2e2ea,0x0b0c28ec,0x388da2a2,0xe8ea8888,0x0aaabf8a,
	0x8aaa2a82,0xa0c288ae,0xca832a82,0xa202aa38,0xb0f2ef22,0x0f2e8a83,0x3cebebec,0x0cca28b0,
	0x40ba9755,0xba9fff40,0x43aae9fa,0x80540081,0xaac88af0,0xc8ae8f00,0x0c2424b8,0x200afff3,
	0xbf44a004,0x2f2b2623,0xbacd4952,0xbe02ae14,0xab0b9646,0xad884500,0xdfa184ca,0x8caf22ec,
	0xa4ca031e,0x66b8a64b,0xfa812b8a,0x16c86b1c,0x8c0628c9,0xeb83d309,0x2bbec562,0x0303cc3b,
	0x026800b3,0x28fcb646,0x55230c08,0x021a0aef,0x8e19c219,0xba056898,0x9a26d562,0x140aa0ff,
	0x9a00608d,0x80bbfa14,0x4ca816d1,0xa95e1218,0x59b87aff,0x4a10cb0a,0x12c2070f,0xeea108eb,
	0xb2ff02e9,0x9a324f20,0x283bac20,0x02d91500,0x7780a1af,0x5eca0a8b,0x5eb21e6d,0x899828a7,
	0x83b00aa3,0x288d2304,0x7ca9c62b,0xa8a080a4,0x87228c0a,0xaea862bf,0x22e882ab,0x9a230038,
	0x680e8aba,0xbb81ab29,0xe0408b02,0x3ebb3e18,0x90c8a8aa,0xac2aa2ec,0x92600a6f,0x028a2a82,
	0x12e288a0,0xa0200aa8,0xbb0cb0aa,0xbee2eca8,0xe383a88a,0x288d8aec,0x2ab389eb,0x0303a080,
	0xc2acb838,0xea2e8200,0x038221fb,0xab48a034,0x6888e8a1,0xd3a3acca,0x8026da8a,0xc233a08c,
	0x9108eb00,0xa1abcd4c,0x28be408c,0x240a8b86,0x3b990759,0xa82935a6,0x8e3610c2,0xa2a09252,
	0xe832288c,0xcee80f2a,0x987885ac,0x82e009ae,0x2355e501,0x19acc270,0x623e1f4a,0x8beb5aa0,
	0x25052580,0x4681221b,0xbe5644ee,0xa036288f,0x8f299005,0x9206a628,0xa9fd1082,0x8ee1c972,
	0xb87f020c,0x0fe6b686,0x2242dac8,0x291a84ca,0x1e48a50d,0x1312b99c,0x11f6ae65,0x19982839,
	0x4fa8ad56,0x2b91b2af,0xaa949832,0xfb44e1c6,0x912f3214,0xd0ee3a8a,0xa841bf4c,0x140649f8,
	0x66a9a340,0x62826525,0x7bc0ee00,0x30e2b090,0xb2bf8921,0x77488196,0x610ab1ae,0xb3a8b62b,
	0x8382fc2a,0x048104f4,0x525564bb,0xaa0f0408,0x05cb253a,0xc82c4f2c,0x062db34e,0x89323920,
	0x50edba4c,0xaac41036,0x28d1fb20,0xee22210c,0x8538a668,0x23a57ef8,0x7a080133,0xeeccba88,
	0xe89081ae,0xabba01a2,0xa88476fc,0x862f0320,0xeb2ad542,0xafbccfe2,0x972d5629,0x64211a82,
	0x202368a2,0x0251e8c2,0xa88e81a2,0x89f2ca2c,0x1b890888,0x80aad2a2,0x8baa9206,0x00c19238,
	0x842ac7a3,0x898a91d0,0x38afe20c,0xacaae223,0xda298f4c,0x12148488,0x26a358b7,0xae690baa,
	0xc7aba18a,0x21a7b061,0x946e5803,0x02c02886,0x47a5ec45,0x30afbfae,0x26895a25,0xa94b8821,
	0x42bb2308,0x70a72b99,0x9206e000,0xa846800a,0x4a2a3e88,0x98ac6c6b,0xd9e2330b,0xecaa9185,
	0x261a2a04,0x46a1a5b6,0x0ead6f58,0xae046293,0xfb88d446,0x46a1eb8d,0xd311090c,0x80cee8a0,
	0x2e6a1681,0x3918403f,0x805ed1cd,0xcc95d5c2,0xf8401d22,0xc802bb48,0xab030808,0x52893bfa,
	0x88592c0a,0x6a3fec63,0x32ece500,0xaff5ac95,0x81fb2f74,0xebacaf10,0xaa110cc5,0x2e6bac0a,
	0xb28fc4cc,0x55eb2c10,0x0eddc18a,0x800f082b,0x95693e00,0x4c66554e,0x18f0835c,0xac00eaf0,
	0xaf2e2151,0x82fbb085,0x0d89af0a,0x58992996,0xbb0ada90,0x32d1fa2f,0x0f888e45,0x090ce969,
	0x30a6fc55,0x98a9ed69,0xa0445519,0xb0b30ca0,0xaa00010f,0x685e35aa,0xbb2133af,0x45e65912,
	0xa0f96a0d,0xa4149f8c,0xf0380e0a,0xe0a921cd,0x2654350f,0x40c0432c,0xe8820b9a,0x85ae0082,
	0x20b01088,0x80820202,0xe28a1820,0x0aca308c,0x082000e9,0x0a0922bb,0x084ea0aa,0x0a293808,
	0xbaaea2c0,0xba8aa04b,0x388082ba,0x2cab2aa8,0x39809c23,0x8a0bcc09,0x00abc0e2,0x0e32be33,
	0x88aa380a,0x0000228c,0x8eae3a28,0xbea22c0a,0x20aa4a01,0x8ac83333,0x2a8a0a08,0x2120c8ac,
	0x03803228,0xf322cea0,0xa2aa8be0,0x0e222bb0,0xd038288a,0xadc80360,0xa28ea823,0x882e6a2a,
	0x88051c03,0x2fd136ba,0xa0fbba7e,0xed21b23d,0xf8039d14,0xb0d68158,0x026afc52,0xaaa24408,
	0x808c8fa5,0x4a1c0526,0x23268ea3,0x116ab34a,0x0ebaefea,0xaaa23c8c,0x452020e6,0x24259572,
	0x01fbae50,0x8068bfae,0x0205a244,0x432a2318,0x1ad8fcb0,0x0a3f2e6b,0x00276832,0x3624ecc8,
	0xaaa92413,0x8aa82e06,0x50862e10,0xe357858b,0x844e205e,0xa82240a5,0xfde9400c,0x643faaff,
}; //first channel is topmost bit

// Layer: L13
// QuantType: 4bitsym
#define L13_active
#define L13_bitperweight 4 
#define L13_incoming_weights 96
#define L13_outgoing_weights 64
const uint32_t L13_weights[] = {
	0x00a0910b,0x2abc99a2,0x1e18a491,0x3ac91700,0x9b3a2999,0x1416288a,0x3299bca3,0x3888828c,
	0x8c3a2109,0x238d3d80,0x9295a884,0x146e239b,0x992ab229,0x938c880b,0x1a983b83,0xc1b39902,
	0x3320ca09,0x3a8953ab,0x3b4298bb,0x0b3a02b8,0xc2c02a30,0x902ead94,0xac828a43,0x0da2c001,
	0xae00102f,0xa2206190,0x92212b8b,0x32e12980,0x1c28294a,0x0919e28a,0x921bf4e4,0x1202b4b0,
	0x0388219b,0x28239ebd,0x12981541,0x28a003a8,0x02013b32,0x19888b02,0x090981b3,0x996b9790,
	0x1c8c2983,0x19200893,0x3836abcb,0x881b0030,0x38c29aca,0x10dea805,0x08398329,0x3954aac0,
	0x4c8ba10c,0x0ad9ab31,0x0b001a1a,0x12236335,0xa5149f23,0x384182a8,0x5921bdc0,0xb8b301c0,
	0x5aa829b0,0x403d211d,0xa99aa934,0x23eb291b,0x372d2aa3,0xc18e115b,0x1a098200,0x9c5a5ab9,
	0xb0220b38,0x00384894,0x0910c0ba,0xa432cb18,0x0cd3709d,0x31bc32e0,0x92a81b99,0x393298bc,
	0xa702a2a1,0xa9285a82,0xa29a1089,0xa320c010,0x19ab2408,0x904904fa,0x81aad0b1,0x060f9aaa,
	0x88922f8c,0x91082b85,0xc107ca14,0x1b14a1ad,0xcd1a920b,0x213dcc41,0x2b051023,0xadd0db4a,
	0x88bc2101,0x90808b0a,0x19a8908a,0x909c1333,0xc28ca904,0xb2bec908,0xca805b0b,0x28b2b1ab,
	0x9c10bb41,0x3a98940a,0x13c0ec3b,0x209a848c,0x8b20009b,0x2034fda5,0x829ab03b,0x05830838,
	0xf8ab8158,0xbc211a20,0x91a28119,0x00c88438,0x09942890,0xb9320291,0x39183821,0x84b1a281,
	0x2928c80a,0xb9005deb,0xb99ca9aa,0x8c3130ab,0x213b7081,0x32ae00ba,0x22198b39,0x8231ab2e,
	0x24951ab7,0xad2888aa,0x2b1ce02a,0x891afba9,0x0811492a,0xb049252b,0xab8e9a83,0x4bf18221,
	0x79913819,0x8a9f808c,0x1202139a,0x31c189d1,0xc0f002bd,0x29812083,0xd2211a38,0xc898bd00,
	0xbb00b112,0xb2109012,0x20fcc31b,0x288b43c1,0xa182e1e9,0xa28d20a0,0x94210a18,0x1b903288,
	0x2c02ada6,0x0312cc90,0x30901bb2,0xb1112194,0x3124aaa3,0xae2c400a,0x99a74102,0xab242ba2,
	0x9b39b34b,0x419a8cb0,0x998293a1,0x08aa8b93,0x3b8081a4,0xdbb4212a,0xa8918a20,0x4823730a,
	0x9baa9c92,0xab00d414,0x8944622c,0xba0293d0,0xe2b4a831,0x0b1d1292,0x29b932b8,0x24c19cb2,
	0xd9282cad,0x29f2101a,0xc9c9caa0,0x1c400a5b,0xb1b23a31,0x99bba932,0x930ae32b,0x940aa073,
	0x03b8a1aa,0x28af221a,0x9bb0012a,0xc1b5ba08,0x931aa38c,0xa332d8c2,0xea09232b,0x9899b0a9,
	0x1d8082c8,0xc2081032,0x4932d398,0x9999882a,0x9283c1a3,0x1b0ba538,0x1828b01c,0xab92c193,
	0x2b98ab88,0xa859088a,0xc8210132,0x143181c8,0xaab1008b,0x10b1c9d2,0x99c8b594,0x80291b1a,
	0x83c2c909,0xa9a0204b,0xa402aa29,0x9ca18b09,0x9b1813bd,0x3903b273,0xeb80da31,0x09427028,
	0x011f5923,0x01803122,0x9805ed8b,0x02224b88,0x3b833c99,0x9ad449a9,0x9bb04918,0x28025a91,
	0x891a8a48,0xb4839ca8,0x88dd3430,0xb4a0918a,0xc3242b10,0x92b2a1b1,0x930aa58b,0x0a1a28b0,
	0x1881c18d,0x12221c3c,0x30b39941,0xabd9292c,0x08b99103,0x028c3cfa,0x82b201b0,0xacaa9034,
	0x3b9a21b1,0xa0439288,0x0387a300,0x218bb403,0x08b09cd9,0x009c8b23,0x21991429,0x2998bac2,
	0x8030b9ba,0x0c945512,0x88b84a10,0x38581000,0x149e1299,0x3bb920ab,0xa24dc1cc,0x00a30343,
	0x1a125baa,0x0ba90088,0xbbc1411c,0x18aa3051,0xb488b1b4,0x18d80089,0x0a00192b,0x918bbca0,
	0x10888a33,0x20318188,0x404b7300,0x8a20a8ca,0x31890118,0x8b0a4a00,0x1949dc84,0x98d122c4,
	0xc01800ba,0x98aac2a1,0x922c389a,0x200b941a,0x8a2d3983,0x1938e131,0x90331188,0xc1139a1a,
	0x5b982224,0x212700a2,0x8b299da0,0x01091903,0x2a9a9133,0x001b1ddb,0x19c5029b,0x29db9e93,
	0x9233c803,0x2b214528,0xaccc9101,0x1a0a1822,0xab29c101,0xa8b92002,0xc802e881,0x2b6190b2,
	0xdb82c832,0x1201c9a0,0xd43b00ba,0x18a32182,0x00088003,0xd09a9290,0x18190382,0x22a81110,
	0x2240a32a,0x98acad8c,0xb18a4430,0x01ca121a,0xea8c0a2a,0x188ca170,0xa413aa10,0xc402a8c1,
	0x314cc822,0x4a28642a,0x808fe980,0x90113afb,0xa9a11985,0x23d21c20,0x191129c1,0x1a449b11,
	0x28111998,0xbb0cd81a,0x2accb321,0x089bbbb8,0xc8c1939b,0x801cb289,0xa0adba18,0xbaba9c98,
	0x29900ca2,0x9921b098,0xb01009ba,0x082b3908,0x0c802139,0x103293ac,0xa0b899a0,0x089894b0,
	0xaaa899c0,0x4c2aa84b,0x418dcdd3,0xa09143c1,0x09ea1198,0x822a1998,0xa310c111,0xa38480da,
	0x992ab0ba,0x18228323,0xd382e2a2,0x2b3138ae,0x0931318b,0xab326b89,0x20c0bc89,0xc291acbc,
	0x01aca81a,0x92ccb932,0x22812c02,0x9c3a0b11,0x4191891c,0xa8d2b28b,0x22d0a4a0,0x0c2b9788,
	0x1a90b882,0xaa1242a1,0xa0a9b828,0x12822ac3,0x909b5398,0x3c82100d,0xb9ccb020,0x454b22a8,
	0x0501d088,0x4891a01b,0xadb91430,0xb3a90c39,0x85b921b9,0x00450a90,0x0ae23891,0x9b51a003,
	0xd2805b2c,0x03c808b2,0x2c28918a,0xad048a83,0x8b0251aa,0x9b8f0812,0x179aac38,0x2b2234c2,
	0x04111b3a,0xdac1b180,0xf1893031,0x10119940,0x0ca19088,0xbaf9a4cf,0x090801d4,0x81dba9e2,
	0x3f0e0e09,0x2ca886e8,0x4501111b,0x0aeaacb4,0x1502134b,0xf3c2d129,0x021eddc9,0x3abd2061,
	0xacc9c290,0x992aaaac,0x8344b411,0xb3a802af,0x8d3d4892,0x8228a052,0x42b1ba00,0xa8cafba0,
	0x29089090,0xd808398a,0xdc92b908,0x9b8218b9,0x9943a3d8,0x325ba426,0x2b09492c,0x8a9b9121,
	0xc53a18b0,0x038aac19,0x21261989,0x891ada99,0x0035b228,0xb88d28b8,0x91c403aa,0xa1a91829,
	0x9583a2c1,0x83021aa8,0x1c8b30b8,0x481d4b2a,0x09232a0b,0xa9b80b28,0x3243aa20,0xcba1a30d,
	0xb39b390c,0x804ba509,0x1909d191,0xb81ad1f0,0xa8814a21,0x9d1c88a8,0xa32a4189,0x11894a93,
	0x06002a88,0x962c2998,0xaa829aa9,0x91ab72b8,0x1020930b,0x081c86b4,0x2a62b1a9,0xb9e3038b,
	0x32307a83,0x0a8e20c8,0x32bd9310,0x08189912,0x038bb100,0xa418a41c,0x82b1a0a1,0xb14309a9,
	0x80b094c1,0x204a3a02,0x81489812,0x842a9a79,0x02246012,0xbba2a400,0x5219b289,0x4a2a8389,
	0x1a9a8196,0xe0833212,0x983398a8,0x290b8d81,0x0b3b1413,0x9291b4a0,0xb1031992,0x829c98a1,
	0x2bcaa9aa,0x834a8811,0x3323a002,0xc890020e,0x02c19aaa,0x99eb9822,0xc3bba890,0xc4188a38,
	0xcc931282,0x83a11231,0xa9915120,0x820ab0d0,0xa9a0b12a,0xa190c949,0x1b91b20c,0xacc3a80a,
	0x07292299,0xd79bdbaa,0xa0484114,0xa12af182,0x8e008e99,0x2aab08b8,0x0bc338d9,0xa3bb8150,
	0xb1039022,0x38881221,0xa3020501,0x78b0083a,0x3182693c,0xe00aa990,0xb0b392b2,0x88200df9,
	0xb88a2989,0x88a6f191,0xf50d3180,0xb1181084,0xb8b2b830,0xb827328a,0xa003dd93,0x8a89a888,
	0x1e08dc1d,0x31a830a2,0x33301120,0x1a1c4200,0xa6010bb0,0x9889a138,0x950ac022,0x8b16891c,
	0xa2a4dec9,0x49ada91b,0x130ab9b0,0x11904bc1,0x042c89b9,0x8b8c8102,0x91446bb4,0x1b9bce02,
	0x999aa393,0x92109b5b,0x1a2e0a18,0x1e9aa22b,0x993998a3,0x2c012019,0x29202011,0x9180212b,
	0x300a8a11,0x90328490,0x9264522b,0x4889af2c,0x18400499,0xb8aa4c2c,0x122799a1,0xe9b0b12b,
	0xe1a3b2a1,0x203a0b26,0x0200d829,0x880c23ca,0x14bba398,0x118aab00,0xb4c988b3,0xb49be923,
	0xcb9b0b82,0x1a119430,0x9a124138,0x395b1432,0x90b2d802,0x93a53ba8,0x9188438b,0x99a54080,
	0xb1199988,0x2ba420b1,0x981d04b9,0x21b2a98a,0x2abc2010,0x03a1159b,0x2b9b6c83,0xa9429998,
	0x4389bb0e,0x071a3223,0x3022bd30,0xba901189,0x993b009a,0x242bfb23,0x331911a3,0xbdc9e802,
	0x28883b33,0x9123c918,0xc20c0922,0xb1ba8332,0x50d9c929,0x8dadb032,0xa20ba813,0x28983382,
	0x0a981298,0xab538aaa,0xa9a1080b,0x0aa0181b,0x8d101a1b,0xa13a1b8b,0x918ac39c,0x1aa830a1,
	0x9019e8b3,0x8a208308,0x0981412c,0x18b31219,0xfbcab9ab,0x888d1802,0x39012390,0xa0849e25,
	0xcd31c133,0x4b138f28,0xfbd2793b,0x8c401092,0x81699a22,0x2c163eba,0x9cca03c1,0xe1d8900e,
	0xb7184999,0xaf8c0111,0x8a47a2b2,0xbb43c00c,0x93a5e041,0x9a89b9a9,0xc8bc92a8,0xacaa0359,
	0x05320ac1,0x292683bb,0xa29a8c08,0xc189a11c,0x9caec2ad,0xc72bd12b,0x09ab238b,0x202b8891,
	0x181218b2,0x903acd1c,0x013a7220,0x2840980b,0x8042fb2b,0x8929bcae,0xa8a298a3,0xa119a81e,
	0xab1a8182,0x1f1648e0,0xcc253044,0x28903a59,0x8cb99191,0x1da84db3,0x90cb29a9,0x4db2333b,
	0x1909fdda,0xb1e29722,0xb9a3ad08,0x418c9384,0x19dc9081,0x09a1b21a,0x09a1b049,0x09111428,
	0x191aa1ca,0xb2a3a108,0x319cb88b,0x1d1c91cb,0x2a31a1b3,0x121b8829,0x93a19101,0x013c3919,
	0x18a98cbd,0xaf90aa03,0x8ba8a233,0x0bc8f44c,0x8e34b983,0x98b22813,0xb80d1304,0x09b11252,
	0xa0a292a9,0x2104354a,0x21881aa8,0x238d2248,0x4184cd9c,0x0f0d91ba,0x3b513a03,0xb11cac84,
	0x81b10112,0xa8b0a11b,0x0809c0e4,0xd1a5d9c8,0x010a0935,0x2809ba29,0x39b1c139,0xa04b1128,
	0xb30c8b21,0x810db028,0x360a10a9,0x3341e0d7,0x43380990,0xcb4e0931,0xc28fa911,0x09a91248,
	0x1e53a3b2,0x949b3acf,0x9b3a1113,0xa1aa3058,0x22b08c80,0xbc098043,0xb8cca032,0x08032932,
	0x13883cc0,0x810b1b3a,0x989f48cb,0x0a881411,0x89fb0420,0x13122e08,0xa230d919,0x0088ab99,
	0x229a49b9,0xb1299a88,0x9818a42a,0x0908b290,0xbcc220b8,0x99a302b0,0xb08c6039,0xb23a32c8,
	0x81b08029,0x4319ba08,0x92ab2983,0xb0a09329,0x928b90b2,0x0032aa28,0x1cb1b1a8,0x24a018a0,
	0x8223b202,0x898a1ea9,0x1f1a3131,0x1e422201,0xac286b40,0x9822209a,0x919caa08,0xf4c4192b,
	0x0ba1b981,0x3e3308b9,0x3d280320,0xa10cb109,0xc24a2090,0x2824faba,0x11bc9931,0x295394a0,
	0x301061a2,0x312a0eb1,0x2cca0108,0xc08b202b,0x46c8a033,0xc22882b9,0x90b0a1a0,0x9324ad4a,
	0x9a1ab911,0xb24313eb,0x9b4cb2c0,0x28ab93b9,0x0a2a7138,0x09133a11,0x9922c341,0xa910822b,
	0x3e931282,0xa5823caa,0x19c3c38b,0xa0d0b440,0x2f8c1299,0x0e8889cb,0xa9ac4059,0x130ba3aa,
	0x4b89aaa8,0x8d2cb71a,0x41a94492,0x945b941d,0xbdad9209,0x9ab91299,0x83b3234a,0x18209823,
	0x0b18b1b8,0x32238234,0xabba3848,0xba7ba2ab,0x430b321c,0xbcb429aa,0x3a3bac8a,0x08390895,
}; //first channel is topmost bit

// Layer: L15
// QuantType: 4bitsym
#define L15_active
#define L15_bitperweight 4 
#define L15_incoming_weights 64
#define L15_outgoing_weights 40
const uint32_t L15_weights[] = {
	0xaa2bba2f,0x3ac8dbc8,0x83db4a3b,0x058881ad,0xe9cac418,0xa2bbd2ba,0xc9a9a8ea,0x888a91b2,
	0xb9f9a9d2,0x1bbad93a,0x94c83bad,0x849f392c,0xd3828b90,0xbc2198b3,0xbe91d89b,0x90d0eaea,
	0xc92aa9ac,0xd3c3aad4,0x3d8cb18a,0x3a19cbaa,0xfa0198a8,0x1dd24b99,0x3a3bc9a4,0xc99808c9,
	0xb80aa08e,0x49d0d02a,0x01c942aa,0x99883c3a,0xead8ac98,0xcd4b0b3b,0x88d828c2,0xbaa01aea,
	0x49a13a0d,0x21dab2c9,0xbd1bbb0b,0x8992958a,0xbbe0ba9b,0x9cababb8,0x0b80c219,0xa1191048,
	0xbb09a8bd,0x09f8fcfc,0x2c9b8081,0xa29d0bbb,0xf928a218,0x929289ca,0xa450399a,0xba1a8983,
	0x3ae1982c,0xa8fbdaea,0x9fc2c8b4,0xab1c899b,0xa8d8a83a,0x9fb13a88,0x8c9853f0,0xdaa02348,
	0xd0bbb9a9,0x19fab8fd,0x1a9ad109,0xa09ccb3d,0xf0d9a382,0x80c0a321,0xb5a389fb,0xba321a84,
	0x3989488f,0xc929cbf8,0xab30920a,0x8b809a9f,0x09d8dc31,0xa8da9c38,0xbba8e188,0xb31a83b9,
	0xc3e9b92f,0x88c992da,0x0b1b9329,0x9899ba2e,0xdaeaac23,0x12ba8449,0xba988adc,0xa140b3eb,
	0xa3281992,0xc9e9cac9,0xa081aabb,0x280c0baa,0xc9380289,0x6dc0b2a2,0x9ba2c8bb,0xc00acb29,
	0xaa2ba9af,0x09829aa0,0xba2a9a09,0x8903998e,0x31c9ac21,0xc3cb3cba,0x1aa8d98a,0xa31ab0cb,
	0x0aa9b9ee,0x39c3b8a3,0x0bb99189,0x8100389d,0x38c8b212,0xdf034a18,0xbac9a291,0xdbc99bf1,
	0x08aa10d3,0x9cbaa999,0x9b88b8ab,0x890fbbab,0x0933999b,0xcd432aa3,0xab39c1c4,0xbaa91aab,
	0x9841aaac,0xab2ae438,0xa1b420ab,0x8a1baa09,0xda941c80,0xcb1aa1a9,0x1c90d9d0,0xa990cb08,
	0x23b3904c,0x90d08bda,0x11a8a2a4,0xb410392c,0xf1aac028,0x9bab893b,0xbbb829fd,0xa98aa0a0,
	0x934b39ae,0xb4e8baeb,0x08ba2329,0x0183cb8b,0xd9ca419b,0x0bd88b08,0xa099cae2,0xa0c241d0,
	0x1b19b03c,0x39eafbfa,0x3c0089a8,0xa91c3c9e,0xfad98131,0xa2bb2b09,0xab90aac4,0xc938101a,
	0x3ac89aa2,0x8ae3a9a1,0xa3a3c999,0x3a8b3c3b,0xeaabdaa9,0xceb1a300,0x2d09839c,0xa88a3989,
	0x9a94089f,0xd929c923,0x92ba943d,0x0b842a1e,0xa9b11ca9,0x9ca09b43,0x9aa8aac9,0xa1d89ad1,
	0xc9ab299d,0xac3a21b3,0x9caa0812,0x9b82028e,0xa1d8a891,0x8e894aaa,0x8b89d924,0xa4a8dbe8,
	0xdaf2d2bf,0xec3ada31,0x99ad1b1d,0x9c9fbc93,0xc820c2ab,0x3ab1b8a8,0xae50f02b,0x40c0bbf8,
	0xd83aa94b,0xa2b1eab8,0x3a4b39ab,0x0a009daa,0xe9dbdb39,0x9cbb0a4a,0x399928b9,0xba0a30a9,
	0x29b2b41f,0xd03aabda,0xa2b02ba1,0x809c032c,0xfa9054a9,0x2ec99cba,0xbc80c8e8,0x91a9e2b9,
	0xa209a98d,0x00f99ad3,0x2d4bb3c9,0x3c0bbbac,0xcad913a9,0x8e99b0a0,0x2a95c9ea,0xda0404b9,
	0xa0ab9a9a,0xb3e22af9,0xac2aab81,0x1b1bbdaa,0xb54a80ab,0x9fb8b099,0x1031f129,0x19232bc9,
	0x93fb29c1,0x9bd28801,0xac94a493,0xa80d883e,0xaa1ac88a,0xce31b1b4,0xcbaab0ab,0xbbc0bac3,
	0x92998091,0xf8f3dae3,0x29a9a0b3,0xa5929db9,0xf88b81a9,0x2ea2c4ca,0x388088bb,0xa9819ce8,
	0xa91aa9df,0xeb133891,0xbc198022,0x2090aa81,0xa898a9a5,0x8e8bd409,0xdba9e9b1,0x23c9caf2,
	0x8ab9a8fd,0x9c3803c1,0xca9a9931,0x8b9ba293,0xb1b38a91,0x84aaa9a2,0xbea8e919,0xb829cc91,
	0xc8f999a9,0x8b9b8a09,0xb0aa1b01,0x0c88c982,0x5189b29b,0xac3288c3,0xcda8ca9b,0x40b0d9c8,
	0xb9d999d4,0x1afab89b,0x9a9218aa,0x999d0bbb,0xf411c909,0xcdb4b8b9,0x2098a1ec,0xb9901b58,
	0xbafa8aae,0xaa10a423,0xb98d0b2b,0xa919d088,0xa382a8ac,0x8ca9ab9a,0x2fb8005c,0x98d8fc28,
	0xb9f124cf,0xead83418,0x049b0b09,0xbc8eaa84,0xe11012bb,0x8e2dcd8a,0xaea8e8cc,0x1990bbe9,
	0xaad8809f,0x843932fc,0x2b0ba1b0,0x1a03c99b,0xe9b8ab1b,0xbccb8899,0x299aa8db,0x9114211a,
	0x3af319af,0xb02ae9bc,0x84a23a9c,0x990a218b,0xdbdaac8a,0xbc8b8a10,0x1a894289,0xa0eab929,
	0x38ba40cd,0xd9f939da,0x9b189982,0x2089cbac,0x199aaba9,0x2e04b9a8,0xa192e2c3,0x3bc20ad9,
	0xc99809bb,0x3ad2ca58,0x9d388aca,0x3a1e8d8c,0xb81aaa04,0xaca9a9a0,0x1888d840,0xba299b8a,
	0xa1f491df,0xdd9a40b1,0xb9b4ad22,0x9c9cc90a,0xb2200280,0x5fbd23b0,0xcd89f8cb,0x09a0ccfa,
	0xab188acf,0x398988f0,0x3c4db991,0x9809a09e,0xda99a8a2,0x24b98cb8,0x29888911,0xc13a91da,
}; //first channel is topmost bit

#endif